[START]
[END]
!
'
.
?
a
b
c
d
e
f
g
h
i
j
k
l
m
n
o
p
q
r
s
t
u
v
w
x
y
z
to
the
my
it
and
you
is
in
for
of
on
that
me
so
have
but
##s
just
with
be
at
not
was
this
now
can
up
good
day
all
out
get
like
are
no
go
today
do
too
your
work
love
going
we
got
what
lol
time
am
back
from
one
will
know
im
about
don
really
had
see
some
there
its
how
night
if
still
they
well
new
want
think
home
ll
thanks
oh
when
as
he
more
here
off
much
##ing
miss
need
last
re
an
then
morning
tomorrow
hope
##y
been
great
has
twitter
or
haha
her
again
feel
##d
she
sad
fun
why
##e
wish
only
sleep
right
bad
would
happy
very
ve
sorry
tonight
did
by
##a
##ed
come
make
them
way
getting
though
gonna
over
nice
better
##t
watching
should
yeah
wait
bed
could
week
didn
school
people
##n
hate
him
days
##o
even
##r
hey
after
yes
next
down
who
weekend
awesome
dont
thank
##er
never
soon
were
cant
long
take
##h
little
working
first
wanna
please
say
best
tired
everyone
show
life
ok
doing
sick
having
being
watch
his
any
done
our
feeling
where
let
##ly
always
##i
sure
thing
already
##l
friends
another
cool
##in
than
us
something
find
won
guys
man
ready
made
yay
because
looking
phone
yet
hours
look
went
house
ur
before
movie
ever
pretty
maybe
trying
away
omg
##m
summer
old
finally
tweet
early
help
amazing
damn
follow
things
##g
guess
someone
left
lost
friend
into
keep
big
thought
year
wow
bit
hot
nothing
girl
missed
ya
rain
same
sucks
while
bored
other
glad
start
try
baby
live
also
doesn
looks
birthday
tell
coming
two
weather
does
sun
later
##k
song
ugh
hear
actually
those
th
stuff
party
saw
excited
makes
##p
waiting
might
hard
game
play
said
##z
yesterday
god
thats
since
world
until
hi
gotta
late
lot
few
such
myself
around
mom
music
car
many
check
sounds
head
friday
must
luck
found
cold
job
call
read
##es
haven
give
their
beautiful
sunday
aww
making
may
gone
talk
missing
monday
put
anything
stop
poor
least
woke
okay
till
leave
most
almost
tho
free
use
times
hair
cute
lunch
isn
family
iphone
far
listening
##on
hurts
hour
eat
food
mean
end
wanted
funny
dinner
##u
enjoy
everything
finished
anyone
shit
followers
playing
believe
welcome
thinking
##c
sweet
forward
without
which
video
every
cause
real
hahaha
mine
totally
outside
##ie
these
coffee
##w
stupid
enough
buy
ill
wrong
anymore
through
didnt
probably
weeks
room
ha
place
tweets
xx
once
eating
tv
win
money
stay
dad
busy
sooo
##b
wants
following
lovely
##le
saturday
class
pic
came
says
whole
seen
kinda
##x
taking
kids
crazy
beach
exam
hopefully
super
guy
##ers
headache
both
name
took
half
news
hello
idea
true
post
years
book
face
hell
goodnight
pm
##f
able
forgot
ago
meet
wasn
run
else
either
lots
reading
full
rest
leaving
shopping
sitting
ah
girls
send
boo
used
computer
soo
hurt
feels
cuz
couldn
blog
seems
alone
raining
remember
heart
aw
dog
fuck
talking
office
btw
hehe
hit
own
watched
tried
trip
com
stuck
##al
heard
needs
st
mind
boy
internet
course
kind
started
part
seeing
##ee
wont
online
##ies
picture
using
quite
break
awake
nite
pain
add
fine
breakfast
cry
pics
loved
told
goes
facebook
boring
change
person
seriously
til
wake
##an
sunny
##v
lmao
minutes
update
bought
broke
la
june
dude
ass
care
season
##en
open
concert
gets
called
lucky
starting
asleep
##ry
anyway
hungry
fan
month
pay
site
sister
link
crap
afternoon
bring
drive
favorite
reply
shower
walk
sleeping
red
instead
heading
study
ice
##te
xd
##ting
bye
train
jealous
text
yea
rock
exams
bout
enjoying
mother
mad
##rs
brother
wonderful
high
hoping
move
##ic
definitely
sore
city
soooo
together
dead
running
problem
homework
sometimes
fail
##ia
congrats
finish
died
ask
goin
dear
##ch
means
fucking
happened
write
works
email
movies
album
##nt
sigh
town
##re
suck
drink
laptop
top
couple
youtube
boys
cut
church
loves
eyes
months
set
##or
evening
comes
tour
ppl
tea
less
##ment
water
dream
##tion
ipod
perfect
reason
weird
ive
##ck
cat
happen
nap
cream
sound
final
side
studying
gym
songs
visit
##ty
meeting
dance
##ce
test
listen
close
ones
lil
fall
english
loving
interesting
seem
tickets
fb
nd
mood
store
hang
list
agree
clean
catch
story
ate
##us
##ng
moment
##ness
ahh
second
writing
knew
turn
fast
##ter
pool
##ts
word
worst
london
air
awards
smile
chocolate
broken
ride
page
wishing
saying
##ss
hmm
unfortunately
##ve
black
yep
da
worth
xxx
three
supposed
moving
star
photo
via
throat
driving
past
##hh
short
cleaning
sunshine
sleepy
park
wedding
forget
dreams
pictures
mum
em
jonas
sent
##se
uk
horrible
gave
understand
##st
##ll
##ge
followfriday
tweeting
##na
sat
drinking
##ion
plan
college
pick
account
wonder
mac
chance
team
lady
moon
wouldn
whats
slow
green
hugs
worse
date
easy
under
##ted
doesnt
aren
##ar
rather
longer
flight
apparently
fell
hand
scared
cannot
special
bet
flu
vote
point
upset
mr
holiday
bday
wtf
tuesday
##it
miley
nope
updates
parents
spent
mtv
due
band
##ra
plus
huge
plans
##ble
myspace
thx
body
white
earlier
fair
words
hanging
ahhh
spend
forever
##ne
wondering
##able
vacation
shame
bus
join
##is
lazy
website
line
idk
worry
message
especially
sims
shows
##ity
slept
##less
beer
during
wear
answer
lets
voice
stomach
thursday
july
##ful
david
fans
sadly
warm
##la
thinks
cake
support
hrs
google
die
learn
tom
looked
##ling
different
figure
chat
##ton
havent
radio
bbq
inside
number
yummy
boyfriend
meant
son
##man
fix
eye
camera
met
airport
luv
pizza
blue
safe
rainy
crying
episode
mins
shop
##ey
dress
liked
small
officially
##up
paper
power
##ation
dm
except
photos
##sh
##yy
shirt
tummy
apple
graduation
##ah
finals
project
games
kid
absolutely
kill
ps
shoes
garden
laugh
worked
##et
save
##day
shall
felt
twilight
bike
proud
hubby
decided
alright
beat
chicken
yourself
cd
road
yo
each
needed
brothers
##ive
##oo
##ping
lonely
##me
##at
##th
club
##de
yup
hug
books
hospital
gorgeous
woo
annoying
played
xoxo
wine
wit
sign
case
exciting
card
hmmm
##ine
babe
exactly
starts
wishes
##est
lame
keeps
feet
wednesday
front
living
taken
cos
bro
french
ouch
packing
##ay
awww
##land
hates
scary
near
##ta
goodbye
##ke
fact
##ds
##q
turned
share
business
question
happens
order
cup
jus
isnt
service
##ha
behind
knows
realized
ma
everybody
pass
mothers
drunk
download
sold
##les
##dy
gettin
minute
waking
##ro
although
whatever
clothes
vegas
app
yours
relaxing
sis
touch
##um
mail
walking
lose
giving
##el
killing
along
##j
alot
film
wife
web
hahah
videos
guitar
box
company
fly
terrible
##ous
self
##ns
random
enjoyed
light
revision
##da
fantastic
posted
sit
single
version
##ped
eh
##os
round
passed
ahead
##ish
hangover
comment
bb
interview
lakers
staying
huh
##as
##ent
bitch
ohh
singing
##ps
gosh
asked
indeed
ff
mommy
bummed
lately
aint
history
min
peace
dark
nights
hun
dying
fml
daughter
deal
art
plane
headed
bar
upload
completely
dvd
cook
vip
shoot
##ley
currently
usually
changed
between
country
freaking
##ist
death
bloody
disappointed
camp
hotel
awful
wearing
sing
traffic
worried
yum
cheese
nobody
extra
fat
##tt
hold
fingers
sexy
##eee
quick
cousin
pc
na
pink
serious
ran
nyc
blood
nick
exhausted
others
de
profile
low
watchin
door
daddy
itunes
somewhere
pissed
coz
caught
nearly
spending
chillin
dunno
dang
##ary
ooh
nose
fixed
math
taylor
xo
##ate
closed
info
mcfly
men
matter
fam
blah
##ring
appreciate
gay
magic
##nd
maths
problems
dogs
mall
fire
def
rd
hands
group
fever
ended
silly
ticket
takes
##ld
yr
##id
##to
young
note
joe
tweetdeck
shot
##by
jon
stopped
kate
rip
type
##hhh
future
windows
bag
##ma
sooooo
puppy
mmm
none
ny
theres
storm
##ging
demi
screen
wat
nah
window
fit
etc
##do
trouble
doctor
father
plz
practice
blackberry
heat
swimming
husband
woman
tan
argh
bummer
training
possible
classes
normal
planning
john
confused
hilarious
dancing
drop
pray
mate
laying
doin
shut
double
chris
often
middle
calling
thru
bless
quiet
congratulations
thoughts
failed
series
##cy
##ian
legs
teeth
wet
##ks
background
record
sort
uh
##out
street
fav
hills
peeps
major
miles
brain
foot
starbucks
ball
fight
trek
##bs
hasn
doubt
straight
usual
##cing
burnt
laundry
trailer
id
mobile
couldnt
france
event
badly
kick
mention
##ure
##ving
fish
honey
stand
epic
dropped
##ur
putting
fresh
learning
sending
kno
choice
##ff
australia
bank
speak
gutted
##aa
paid
pre
taste
available
hahahaha
sale
rocks
state
suppose
##ot
##ct
buddy
chill
pack
prob
##nce
cancelled
##rd
##ri
anyways
search
##ut
four
shes
south
sky
wasnt
##am
feelin
checking
falling
helping
milk
chicago
##rr
ache
yall
##ls
depressed
loads
shouldn
ages
bf
msn
##yyy
dentist
leg
ain
ideas
kidding
woot
nervous
prom
##gg
cover
afraid
channel
adam
smell
##rt
asking
mouth
darn
shout
american
keeping
hes
##ow
##ze
san
sum
dr
sense
cried
killed
likes
moved
track
twittering
##co
everyday
##ya
hannah
design
gig
blast
buying
##ny
become
swine
ladies
tweeps
complete
race
kitty
##ged
somebody
thanx
dnt
finding
mess
cheers
##red
unless
arrived
losing
germany
calls
promise
five
however
##way
midnight
##ious
freakin
cell
holy
non
vs
##king
area
joy
anywhere
checked
telling
bunch
expensive
happening
gotten
updated
##tor
roll
depressing
sell
followed
lake
misses
##ding
against
delicious
copy
danny
august
net
mama
##io
experience
ima
##il
afford
##ol
cheer
pls
relax
space
outta
sex
favourite
brazil
##no
showing
##son
crappy
energy
folks
cookies
joke
twice
##ning
important
oops
tonite
stick
load
allowed
cooking
##dd
brought
##gh
issues
jb
ng
positive
added
wrote
neck
return
um
studio
wanting
talked
messages
jk
stayed
gunna
row
boss
disney
sushi
bath
##ms
imagine
code
kiss
shift
count
empty
social
cough
pop
uni
workout
match
##line
library
official
xbox
##der
england
floor
bright
view
mark
science
ear
lie
sometime
cats
station
america
finale
mini
excellent
woohoo
sweetie
ms
fave
twitters
drinks
stress
##ca
mornin
island
tears
oooh
session
##be
adorable
law
alive
thunder
vid
##lly
noticed
release
secret
gift
ring
follower
local
wii
##age
simple
battery
glass
land
picked
bff
everywhere
soup
ish
rob
tough
travel
board
entire
age
bug
system
##py
button
##ier
##lo
west
couch
grandma
canada
pants
step
style
##ue
york
grad
kitchen
paris
wall
loud
##nn
##ally
##ore
bc
burn
hoo
mo
invite
kept
catching
trust
moms
personal
##time
co
arm
##mo
drama
##sing
barely
brown
jack
weekends
productive
perhaps
harry
machine
media
nails
fabulous
throw
knee
laughing
bill
turns
piece
swear
##gs
ohhh
twit
##ooo
flying
sam
deserve
##per
hurting
strong
##ga
surprise
tweeted
butt
##im
women
dammit
ahhhh
bird
brilliant
article
chinese
holidays
imma
finger
hav
ending
letting
block
dc
##ant
goodness
alex
breaking
jay
morrow
comments
ordered
strange
boat
easier
ugly
##ical
##gy
lesson
lay
bgt
##ite
report
sharing
somehow
evil
marathon
annoyed
diet
james
texas
king
loss
stage
review
##ba
hehehe
realize
spot
teacher
feed
gah
sir
tha
hah
atm
ily
married
apartment
dumb
spring
pro
heh
##her
essay
spanish
craving
flat
children
##ft
anytime
present
surgery
ed
fake
figured
glasses
planned
hr
juice
sa
desk
nooo
football
os
places
six
dry
mike
addicted
matt
size
##sss
apart
helps
results
sisters
bottle
##vin
##my
extremely
soccer
weight
given
grrr
spam
festival
possibly
across
florida
messed
lord
reality
schedule
lookin
shining
wash
boston
click
total
pleasure
mi
babies
michael
degrees
difficult
price
managed
swim
##go
north
rough
winter
worries
##tch
##kin
interested
public
child
fault
##ki
##ville
gives
signed
workin
angry
girlfriend
revising
bread
finishing
memories
mix
##ial
##ir
lack
##tes
cali
lives
mon
##ance
##sy
daily
offer
ruined
connection
orange
squarespace
voted
turning
onto
truly
issue
hows
talent
questions
ughh
##ice
color
##ad
##zing
mmmm
hearing
youre
market
nasty
server
posting
weren
notice
shitty
mostly
smart
sarah
dat
##ming
waste
##eeee
##zy
awhile
advice
shots
blame
lmfao
cheap
er
lived
walked
##ons
blocked
fuckin
drag
noooo
yrs
clear
million
smh
##led
direct
bear
latest
ryan
skin
trending
crash
##sed
blessed
chilling
clock
earth
##tic
decide
fucked
heavy
learned
##ard
##ise
leaves
lines
tree
access
conan
abt
otherwise
pulled
control
fab
biggest
celebrate
player
expect
joined
sunburn
##ess
##sa
healthy
##our
crossed
macbook
episodes
twitpic
coast
reminds
##he
status
sugar
##lin
dave
grow
aha
andy
cousins
ex
##ner
updating
anybody
##ction
##ler
##ves
angel
diversity
grey
heck
goodmorning
attention
level
salad
praying
wee
dirty
literally
quit
slightly
##mi
accident
gr
painful
##op
obviously
baseball
conference
credit
beginning
grand
##ual
client
golf
emails
jam
closer
hero
links
deep
soul
everytime
ow
##mp
table
painting
txt
##ating
tht
alarm
apps
hella
toast
knowing
asap
fathers
gross
hill
cable
montana
##ated
comp
pages
##ster
ing
jesus
quote
transformers
##ron
older
##ger
massive
rid
susan
grr
key
upgrade
contest
##ver
building
california
yard
deleted
ears
##rn
##va
form
hopes
wings
snow
##ka
lovin
##zz
acting
sydney
cards
kicked
tennis
##ak
ashley
##ned
famous
freezing
third
east
mondays
pa
quickly
surprised
flowers
handle
topic
ben
lauren
##ght
eaten
tattoo
##ber
angels
hat
ty
contact
hurry
uncle
crashed
prayers
tear
opening
ten
atl
quality
neither
stressed
tons
##ang
##ition
aunt
pair
##li
##mm
ch
fighting
paint
software
arms
pull
recently
##bly
network
tiny
wide
##ied
##tin
liking
soooooo
europe
known
packed
limit
jobs
kevin
posts
prefer
##ded
##med
##rrr
chick
original
ad
awe
##que
cost
german
##ors
counting
fellow
rice
##ii
fed
act
hardly
grade
tix
ankle
meh
##tly
gas
performance
wind
bacon
ew
slowly
sucked
##mer
##bed
##ins
riding
visiting
##sion
brand
cloudy
health
jump
sux
cancer
cash
excuse
idol
properly
tooth
##one
##side
meal
realised
birds
ends
memory
##hy
uploading
##aaa
downtown
ftw
haircut
bay
decent
truck
success
##nk
ahaha
chips
downloading
honestly
sports
tech
##ight
testing
allergies
main
stars
##ww
assignment
ca
choose
max
points
remembered
washing
##ja
action
center
presentation
filled
tip
vet
##ggg
candy
picking
paying
teach
program
yah
havin
##ul
anniversary
iran
texting
##ys
britney
cavs
missin
booo
smoke
dressed
wars
aim
details
pet
##lt
certain
invited
sea
xxxx
miami
##ible
preparing
expected
thankyou
helped
proper
rite
attack
eggs
queen
##back
beta
growing
sandwich
stories
tryin
impressed
orlando
lying
umm
truth
whenever
install
usa
##ho
certainly
paul
rubbish
screwed
yeh
##ky
##ney
bigger
ho
score
##od
##ball
potter
born
princess
received
smiling
##down
##ina
tony
bedtime
seconds
winning
##om
ac
stoked
agreed
heaven
smells
continue
faster
scene
suggestions
besides
museum
revise
saved
wifi
classic
ebay
italy
purple
##ments
doctors
gb
##ries
restaurant
speaking
##wood
cars
##die
reach
##den
replies
wisdom
cross
whoa
seattle
jeans
names
phones
youu
##boy
al
dallas
human
mode
##hhhh
##ill
miserable
dj
editing
fear
hitting
jason
##rry
ughhh
##house
josh
tmrw
ways
hm
ko
##und
butter
sundays
toe
##board
coke
theme
research
retweet
guilty
begin
likely
notes
tests
camping
el
odd
recording
##di
##rk
pancakes
ii
bathroom
chatting
bite
chuck
explain
crew
national
seat
student
model
steve
war
atleast
current
fashion
alcohol
error
tight
pub
signing
wicked
cookie
fm
hole
wouldnt
##tions
##za
gossip
shirts
ta
burned
spain
justin
terminator
corner
tweeters
voting
wave
##ti
philippines
shake
un
##ddd
##yyyy
hee
option
tips
kisses
##ack
##kk
released
changing
crack
doc
arent
bottom
bunny
swift
creative
keyboard
##room
avatar
heyy
##bo
data
harder
charge
fancy
toronto
##ase
delete
parade
poo
banana
##ach
belly
hw
##pt
##un
dads
sites
skype
spell
treat
jersey
speed
wooo
##ford
considering
lights
log
threw
within
##light
situation
##town
basically
ooo
migraine
##ong
ep
parties
per
strawberry
woop
firefox
loser
term
##ung
cyrus
flash
recommend
wild
zoo
massage
nightmare
runs
amy
curious
gold
nowhere
pie
greatest
sf
stole
admit
boyle
setting
##ttt
switch
clouds
focus
##field
##oooo
bah
dan
mrs
several
##bie
based
boom
cafe
katie
standing
happiness
beauty
difference
field
hayfever
##pin
hd
starving
tune
##pers
george
private
suddenly
gaga
plenty
##ters
balls
covered
horse
kelly
##em
insane
##ip
locked
mistake
wed
cuddle
grocery
wen
appointment
booked
yuck
##ration
##well
##work
aka
beyond
ol
regular
tooo
remind
tommorow
wins
delayed
goal
heads
##bing
##ni
whether
##cs
##ix
##men
##use
honest
meds
##ence
##ham
##tle
image
nothin
rained
replied
thinkin
wasted
##eo
bugs
chair
drove
feelings
spread
tim
toy
##box
press
##val
peter
probs
##nna
river
showed
##nie
build
fruit
result
swollen
talkin
woken
conversation
downloaded
hating
request
written
burning
holding
searching
someday
##bby
##ism
##rm
rude
clue
gs
hadn
palm
chemistry
related
dates
idiot
launch
named
##ek
brings
letter
noo
push
bio
keys
process
yoga
infection
itself
nuts
urgh
mm
period
ridiculous
shoulder
##girl
award
celebrating
eu
appreciated
bestie
bee
chelsea
con
##che
bell
cleaned
frustrated
geek
hung
makeup
mouse
animal
ocean
shorts
texts
tweetie
##over
attend
cupcakes
general
insomnia
##ery
bringing
character
yellow
##cks
breathe
changes
rules
##ities
ie
lee
screw
wolverine
fox
jordan
niece
piano
address
goood
impossible
mee
picnic
yu
closing
listened
response
bowl
bowling
grass
hay
lead
mornings
pity
sniff
##ain
alas
chest
jess
selling
##dies
##pp
actual
en
vids
whilst
##ub
darling
killer
mile
que
storms
stream
charger
content
egg
##ig
characters
ireland
lab
parts
ups
##ug
cinema
comin
mary
mexico
ray
creepy
dreading
large
nephew
rofl
senior
##ture
cruise
discovered
himself
inspiration
##row
sadness
gf
language
rush
states
taco
japanese
##aah
##berry
##ws
pouring
thnx
suffering
yey
##lie
loose
repeat
saving
awwww
exercise
fri
including
magazine
crush
friendly
grab
marketing
mid
tis
bomb
manage
blink
draw
frm
kris
lyrics
moro
respond
##han
arrive
kicking
september
##let
clearly
drawing
melbourne
momma
##ew
blow
freak
incredible
##head
babysitting
fully
lessons
rose
shooting
skool
van
##book
driver
garage
##dle
##pe
canceled
correct
hungover
noon
rich
bands
drank
basketball
##hs
awh
becoming
awsome
cast
graduate
naked
##mate
india
japan
mentioned
parking
prolly
rent
simply
##fe
attempt
mission
fill
hip
obsessed
austin
bags
cereal
demons
omfg
section
blues
bt
pure
seats
##ics
##uz
desktop
shine
topics
##vy
adding
breath
china
houston
robert
##ita
nail
pens
tag
bing
files
contacts
decision
jimmy
##ella
create
lolz
poker
challenge
gd
musical
##ations
##ph
aswell
bothered
pleased
farrah
monkey
##ked
##nes
apt
duty
journey
mp
projects
target
title
##ens
##si
##zed
cnt
dis
errands
lip
yikes
breaks
fried
funeral
le
metro
##iest
italian
nicole
students
##nts
april
bother
faith
##ets
##igh
##ings
file
user
brunch
rise
seb
kim
numbers
bucks
bum
giant
grown
msg
bob
connect
installed
passing
##ties
manchester
virus
##ik
burger
despite
##af
ang
confusing
meetings
pride
sales
sauce
winner
##cal
##tive
lawn
cares
ignore
reasons
##ea
chapter
sittin
stock
tomorow
fridge
##ome
amount
cutting
fest
papers
##wa
rains
scratch
uploaded
##key
##ou
boooo
emily
freedom
bk
physics
##oy
di
kitten
makin
typing
##ap
november
rule
throwing
##ches
##ex
community
coughing
deck
jokes
weak
##ching
enter
events
iranelection
ne
wana
begins
desperate
grrrr
lightning
ruin
bbc
peanut
##ep
##ward
competition
easily
eric
forgotten
mountain
##cted
##lf
hollywood
##ians
amazon
##con
feature
philly
surely
thurs
longest
feedback
gear
singer
sorted
dam
mia
woah
bills
hawaii
heels
careful
disappointing
grace
##als
atlanta
herself
jeff
nom
nooooo
##hi
avoid
british
flickr
talented
allergic
esp
morn
sunburnt
##lk
##ove
##res
opened
quiz
cutest
hide
yeahh
##uh
apprentice
hockey
survive
ummm
according
ground
nerd
pasta
rate
##een
##ering
cam
suit
commercial
oil
ton
wonders
chip
common
mexican
microsoft
nighty
regret
ace
glorious
print
skills
##gle
##ten
damnit
meat
similar
twitterverse
va
##ana
dishes
gloomy
playin
##ua
##wn
brian
meaning
##ok
consider
degree
moments
normally
adventure
iv
colour
effect
expecting
forum
il
nt
seemed
softball
##hing
##jo
lvatt
october
si
spider
spirit
##ising
##ock
court
force
highly
##ave
##vo
edward
monster
scotland
singapore
teaching
dawn
knight
noise
baking
pot
screaming
##fest
##rate
bedroom
bleh
hahahah
##mes
amanda
cooked
genius
universe
##ache
##lan
member
prince
wordpress
##haha
animals
comfy
tongue
artist
mates
pressure
##ions
sry
yahoo
##eat
cancel
crowd
michelle
todays
##gin
charlie
hmmmm
hook
offline
popular
url
landed
tanning
##hip
jacket
mass
selena
central
frustrating
useful
wise
##eeeee
fries
golden
outfit
rt
##aid
##mit
bella
blonde
ga
replying
smith
##ool
##rl
allen
flip
jst
tastes
##ssss
andrew
eventually
kobe
nh
rehearsal
rocked
smoking
sooner
##bi
##ud
depends
square
subway
terribly
tx
hop
inspired
oo
technology
cab
customer
lo
poorly
tasty
##ker
allow
opinion
gona
accidentally
battle
failing
mah
popcorn
previous
unfair
comedy
shoe
tells
##end
ghost
partying
photography
photoshop
##ass
##ran
##tter
grandpa
speech
##face
accounts
comic
diego
forced
host
mcdonalds
tunes
##rin
kings
##xx
involved
package
rachel
laughed
leno
se
##uu
bein
dollars
mmmmm
socks
staff
waitin
##kes
calm
christmas
hall
hooray
minus
##rts
above
luckily
##lla
##nnn
doll
itchy
paranoid
stolen
tgif
tryna
##ell
audio
bitches
faces
laura
pushing
roof
stores
windy
##ware
assignments
dun
lisa
steak
vodka
lang
police
security
smiles
##low
bites
boots
crashing
gud
guessing
bones
bull
carry
gmail
megan
spoke
wk
##ris
cricket
hunting
password
plays
stone
wallet
##ace
##ified
##ory
billy
dreaming
female
incredibly
podcast
seven
steal
ahhhhh
delivery
fixing
manager
respect
snap
theatre
cherry
fridays
reunion
##bury
fo
progress
##pa
nature
##roll
celebrity
coursework
fl
somethin
hangin
obama
panda
ship
toes
walmart
wireless
##cher
fyi
nkotb
tbh
theater
##kie
iron
oz
sounded
##ral
complain
disneyland
hon
noodles
perform
sudden
theory
##ans
##ify
dare
entertaining
graduating
jones
headphones
jet
meee
recovering
takin
hiding
twin
##fy
accept
biology
guest
poop
realise
soft
spare
##vi
edit
maintenance
mixed
sayin
##lies
##mission
collection
shiny
##ivity
##unt
##ade
##weet
planet
thankful
thingy
waited
##tation
drew
exist
geez
ohhhh
university
yawn
aye
ds
fishing
joey
youuu
zero
##list
##load
application
blogs
cupcake
deserved
jo
kay
nadal
reminded
saturdays
xox
##port
##sure
##uts
emotional
hits
master
motivation
musicmonday
sunglasses
turkey
##gan
##tte
babes
hv
mummy
nba
prepare
yayy
asian
layout
typical
anna
beats
jen
rub
script
##ize
##lar
hooked
pieces
scott
yer
##ized
awkward
bubble
donuts
dropping
medicine
twits
yesss
appt
cloud
cure
envy
license
relationship
wah
##kers
beans
bits
logo
porn
shape
stuffed
##ved
bak
blip
failure
nicely
semester
sweetheart
##gie
##ick
##log
boot
digital
##ched
##cky
##eed
##rey
bang
din
ours
pounds
tmr
useless
##cha
afterwards
kyle
towards
steph
successful
wth
##aaaa
##are
##art
##itis
##ship
frozen
washed
##ats
##ress
##ric
demo
graduated
hunt
members
preview
te
##own
dig
opera
tank
thomas
youth
##uing
lebron
partner
pete
rockin
##ces
emma
fool
forgive
insurance
##aha
##ists
##ula
bridge
completed
computers
plain
removed
stinks
##cc
##lic
##nks
boxes
busted
effing
greek
iced
jim
location
pee
concerts
created
definately
lemme
warped
xp
contract
ellen
mag
pillow
schools
tape
##ko
##net
chi
lover
metal
suggest
trade
tues
auto
cramps
cutie
information
jake
panic
phew
shops
tee
bsb
knock
thee
warning
yess
##ening
blogging
ooooh
prayer
skip
solo
zone
##you
cakes
emo
peoples
wrk
##ooooo
##sm
bound
climb
hearts
paramore
stairs
##ose
##ther
dick
dies
duh
headaches
nor
ohio
indian
papa
teen
tiring
##fc
##ggy
##rge
bass
icon
pr
users
denver
hiya
lounge
neighbors
##bar
##tical
addiction
coach
interest
receive
recipe
whoo
##gen
disappeared
lemon
##des
cooler
daniel
dull
hasnt
knocked
natural
perfectly
replace
rolling
##ntly
clients
kristen
nz
younger
##ically
##right
army
clip
grandparents
hated
neighbor
semi
strawberries
supernatural
tool
blows
effort
express
reached
scream
thai
wud
##els
##mic
##ray
##rgh
eminem
joining
pathetic
plant
raw
##rrrr
happier
naw
pocket
shortly
theyre
username
browser
curry
easter
hp
sooooooo
whew
##nin
chores
intense
opportunity
snack
vista
##uff
bugger
promised
##aay
##uring
##vs
eww
heroes
holla
personally
prepared
settle
spelling
wknd
##chat
aching
dvds
everyones
piss
reviews
subject
timing
toilet
trick
buddies
budget
carpet
downstairs
product
punch
split
twitterland
##ents
##ered
##ses
##ust
##vr
mums
tax
wished
##fo
baked
drivers
filming
poster
trees
yayyy
##its
junk
nightmares
sneak
unfollow
waves
##love
##so
asot
career
fi
jerk
noone
norway
pumped
sang
themselves
thunderstorm
tracks
traveling
carter
nj
owe
##gi
##lm
##sha
ahah
films
marley
nc
pig
##fish
##lll
##pire
##tel
##zzz
confirmed
fawcett
jazz
oven
##gling
##hed
bride
entry
nevermind
sucky
##aw
##hhhhh
##ign
##ugh
homemade
laid
role
tweeple
##hoo
brownies
eff
lips
tie
##aging
##lands
##rina
filling
icecream
puppies
robin
santa
##burg
##ile
appear
chem
dvr
edge
ignoring
nxt
sms
wore
##ai
##point
##ree
answers
dublin
geography
kills
prices
returned
safari
##cting
##ctive
argentina
plants
premiere
stops
vampire
victoria
##lock
##night
##ui
dope
included
jacob
playlist
pregnant
pulling
rocking
dealing
holly
jamie
lower
pix
puts
roast
society
ttyl
cries
cus
gee
km
sony
##life
##nds
eatin
exact
gm
thumbs
thunderstorms
whoever
##tone
complicated
ft
horror
irish
jackson
recent
recommendation
struggling
unable
willing
apply
caffeine
linux
mental
##ram
complaining
families
grill
helpful
honor
ian
muscle
nuggets
sean
##ros
dating
delay
further
grateful
grumpy
lbs
lily
phil
sh
##mmy
##une
##world
ads
ash
closet
colors
coolest
exchange
excitement
halo
homie
images
mario
rainbow
shock
tire
united
##ara
##ient
ap
flew
flights
friggin
hood
precious
wrist
devil
est
guide
items
skinny
sleepover
##ica
bleeding
cruel
marie
marry
negative
noes
titanic
toooo
twitterberry
virtual
##ened
##hu
##tv
blind
cracked
escape
farm
forgetting
africa
federer
glasgow
stephen
talks
##ibility
##thy
##wl
aches
active
mega
recital
shoulda
source
upon
##and
##int
became
bud
christian
##ag
##bee
##hin
##min
##ox
hacked
installing
jessica
johnny
plug
staring
teh
##ope
##ually
dd
dollar
gots
hint
stressful
##ead
##ime
comfort
compliment
gooood
resting
league
pills
sight
thumb
uber
whoop
##tz
messing
sob
ubuntu
##all
##ht
##more
##ria
borrow
katy
remix
sara
snl
sonic
stays
##ken
##vert
aaron
answered
attempting
international
pretend
reznor
silver
tall
tube
##ator
##ense
##sk
drugs
kat
mb
rescue
##camp
##dge
##kkk
##ology
appears
oooo
phoenix
resist
sorta
whore
##ae
##lon
cow
multiple
vancouver
wheel
##ez
##lls
##ux
bake
foods
mc
shattered
##ini
##yyyyy
bars
pains
patrick
rly
sox
swing
vines
zombie
##zer
ako
disgusting
jane
recorded
scare
shocked
somewhat
trash
accent
amen
arse
gurl
milano
nine
tempted
therapy
votes
##ief
##nch
##tra
backup
bros
hahahahaha
hardcore
jr
options
rove
sleeps
sport
thankfully
tuned
unhappy
##fs
cleveland
hosting
iz
karma
male
pen
randomly
shaun
##bu
##las
alice
braces
cheesecake
convo
heaps
ikea
listenin
lock
purchase
signal
valley
##ably
##cast
adore
aussie
es
forecast
lap
spymaster
sweden
usb
##dddd
##rated
blew
dougie
duck
emergency
ka
shud
simon
survived
writer
##lines
##mond
caps
dizzy
dresses
sec
##ddy
higher
potato
ye
##ji
##ute
bean
coverage
eve
legal
mines
reaction
safely
salt
yogurt
##ab
clever
follows
jumping
pit
sd
solution
surfing
sweat
tweeter
##band
ai
anti
ba
kinds
sickness
soaked
##aring
##bies
##cious
##east
##sis
distance
donnie
include
sneezing
umbrella
vanilla
wats
##ake
##ci
##ren
hahaa
junior
reports
shoutout
##ees
##uck
centre
extreme
indoors
ly
minds
reminder
boredom
detroit
dust
dye
effin
flower
nokia
twitterville
##ash
##cking
##ert
##llie
addictive
beers
beyonce
built
dislike
factory
favorites
laker
march
php
plastic
pleasant
replaced
##ale
##read
##uk
audition
dudes
korean
mitchel
neighbours
settings
sweets
twins
##itive
##off
##ously
adult
az
convince
etsy
flags
grind
inbox
knw
limited
liz
manila
overnight
srsly
stopping
wrap
##din
##inated
##ium
##ude
entertainment
hardest
nashville
pattinson
route
worn
##rc
##rian
beef
campus
fone
held
shipping
sober
stack
studies
xxxxx
##ctor
##len
##yn
cap
gun
leavin
lovato
management
pe
position
services
sofa
statement
teachers
thou
##pie
answering
backyard
bestfriend
distracted
doo
humid
joking
judge
products
temp
##ield
##iled
##lle
##scription
accomplished
celebration
customers
diff
fa
havnt
perry
reception
remote
remove
rio
##ars
##stic
chilly
concentrate
hs
meeee
mint
noooooo
sand
wifey
##teen
biz
favor
function
furniture
lied
tad
tap
corn
countdown
creating
curse
girlie
girly
gray
lies
mel
moves
pops
quotes
recovery
wa
yucky
memorial
owner
potential
##tos
##vey
besties
cds
costs
features
performing
range
wks
##cked
##rds
castle
charlotte
dev
fails
passion
silence
sim
sp
##ges
##illa
##mail
##page
##tely
bust
chase
grew
legend
org
tacos
##aaah
##ished
##ncy
##rite
##tors
blessings
edition
emailed
goodnite
kicks
soundtrack
texted
tumblr
##tttt
dessert
dia
domain
headin
loop
naughty
praise
routine
sync
##ye
berlin
chrome
heyyy
kit
lift
port
proof
realy
sausage
soda
##bb
##rest
##shed
awesomeness
las
menu
repair
upside
belong
ginger
latte
matters
skies
whose
##cial
gg
martin
messy
pepper
reckon
root
shouldnt
suspended
sway
##oon
berry
december
dee
eurovision
fallen
los
promo
rolls
sunburned
washington
##ac
##duce
##lis
##oop
##sin
##unk
anatomy
basement
bible
brb
celebs
divorce
flies
gigs
players
retarded
shoulders
tomato
tournament
##dale
bs
decisions
earthquake
horny
java
laughs
passes
photoshoot
punk
salon
taught
toys
##ller
bonus
demand
development
electric
lovee
purse
thus
##bble
##ette
##gon
##pot
##reme
aaah
amsterdam
delivered
doors
fantasy
gang
gt
plurk
presents
smooth
##eet
##fully
##mmm
archuleta
dissapointed
hence
knees
liverpool
marriage
michigan
monitor
nw
opposite
reader
refreshing
rings
solid
##ule
abc
ashamed
au
brandon
chef
childhood
display
iremember
nicer
plate
sheets
tsk
workshop
##cle
##rrow
buzz
handsome
jail
##ood
bliss
bueno
chile
jelly
overall
racing
zac
##gggg
##oh
##tie
advance
cheaper
cop
deadline
engine
gimme
housework
jumped
patient
rare
ross
spa
stalker
stood
suffer
uhh
upcoming
##tched
##words
cheering
ironing
neat
relaxed
sake
##ama
##away
##ius
##lous
comfortable
dork
halfway
necklace
sets
steps
task
tetris
trips
tu
##ured
##wi
##zi
booth
eyed
greetings
sub
virgin
##fic
##ily
##rus
##tics
##urs
albums
beatles
loading
prize
surprisingly
torture
##berg
##cated
##ground
##ple
##vity
ann
blanket
connected
ct
den
interviews
physical
recover
tiger
touched
tweetup
ultimate
##ading
##fu
##how
##nies
##zo
aah
balance
mms
nurse
rabbit
tidy
wheres
##cent
##hood
##lp
##vine
accepted
attacked
crashes
hott
richard
sytycd
##burn
##lli
##una
acoustic
actor
combo
fr
grounded
ripped
volleyball
wi
woods
##sper
##ssy
##www
bin
earn
funniest
jesse
pat
prison
spoiled
strength
visited
##acy
brad
cha
deserves
georgia
hols
hulu
mirror
nigga
poem
sorting
stunning
tr
##iling
booooo
compared
cs
falls
haters
inspiring
mango
marks
patience
pup
surf
tragic
weekly
wimbledon
woooo
##lton
##nut
blown
crossing
dangerous
eclipse
global
lambert
suggestion
ughhhh
wkend
##cate
##kins
##oe
##oth
##wt
balcony
dot
effects
fry
humor
letters
painted
views
wood
yaaay
##ark
##ku
##oooooo
##rg
##uin
bracelet
drops
muffin
pan
peaceful
therefore
##bit
##check
##eh
##lake
##tal
##urage
##wan
absolute
canadian
constantly
damage
goodluck
ham
hectic
hoped
iam
impressive
karaoke
lasted
levels
lj
maria
purpose
scheduled
worrying
##can
##cts
##ide
##iz
##ream
##yer
anxious
asshole
aus
beating
continues
dh
err
jogging
portland
signs
tub
uses
##cat
##ien
##ior
agh
britains
disc
housewives
ink
sighs
twas
##cil
##nite
##oke
##ots
##tar
##top
##vie
bon
designer
jeez
korea
luke
##cake
##ely
##oma
##wall
articles
australian
bastard
beloved
bone
charity
dean
gardening
hugh
rides
scrubs
value
venue
##cker
##lay
##rse
##thing
##ups
##vation
amazingly
base
bestest
county
disaster
gain
instant
naman
op
props
replacement
sour
##eb
##tles
##uf
##ures
advantage
announced
blank
britain
celeb
coldplay
drinkin
frank
gaming
goooood
polish
rafa
reference
spin
vibes
##name
##oline
abit
aid
beast
burgers
doggy
mighty
orders
rad
supporting
taxi
tend
tommorrow
websites
##kit
##real
amazed
bears
bullshit
channels
graphic
heather
houses
hyper
ni
nintendo
roommate
urban
verizon
##gn
##iii
##lash
ay
covers
eek
eight
kittens
montreal
neighborhood
raise
refuse
rugby
seasons
sunbathing
sunset
twitterers
##ax
##duced
##ifying
##og
chose
crime
economy
eva
familiar
injured
myweakness
servers
strike
tomoz
urge
##walk
amber
attending
bow
cc
cud
dolls
jared
jerry
louis
nighter
pissing
sinus
ss
stats
##ggle
##ost
archie
hilton
laws
mandy
pt
shaking
streets
tools
tyler
##eeeeee
allergy
banned
derby
designs
gon
register
walls
##ec
apologize
applied
cba
crushed
crystal
cullen
entertain
internship
paradise
president
ram
wot
##ctions
##get
##pped
##rie
##rro
##wk
cranky
del
desperately
fairly
finds
haz
jenny
muscles
passport
patch
popped
shane
untill
##ett
##fa
##izing
##lance
##mal
##mies
##uch
crib
example
fitness
multi
nut
rb
southern
trains
wasting
whos
##nya
##of
##stone
##ulation
blowing
breeze
killers
perth
pile
saddest
sessions
smoothie
spears
uhm
vegan
webcam
##ast
##ined
##ught
chain
chances
combination
cycle
motivated
relief
wierd
csi
donut
gary
horses
joys
professional
skirt
supper
##aaay
##aving
##logy
##mw
##phere
aa
asks
average
coat
itouch
lions
lolol
pork
rap
spinning
streaming
tat
telly
wink
##fail
calendar
commercials
gifts
ruby
##cia
##ffe
##mma
##nding
##phone
##wed
ave
brooklyn
choc
graphics
marsiscoming
networking
oliver
psp
roger
spicy
sprint
stalking
##ane
##ced
##gate
##ils
##mps
adventures
assume
aware
bump
championship
closest
custom
edinburgh
gal
icky
lobster
needing
rarely
seniors
sg
thin
wht
##cca
##ttle
api
bat
bobby
device
doh
drums
footy
forums
groups
muse
notebook
spilled
stranger
##bye
##ike
##nal
##sive
##ura
breathing
damned
dutch
erm
figuring
fits
garlic
greg
ignored
legit
lucy
madness
ninja
##air
##bia
##mitted
##pack
anne
bamboozle
captain
concept
dish
feeding
gods
naps
nikki
owl
pets
slight
sonny
thrilled
unit
##ire
##yo
artists
cod
friendship
lush
paperwork
records
smiley
spotify
tent
##cure
##dence
##mark
##star
##ury
concerned
jackie
ot
shy
stressing
upstairs
##bled
##inal
##ndo
##volution
burns
chicks
colorado
cops
lens
lit
mic
ridiculously
romantic
royal
switched
tt
wendy
wut
yessss
##asing
##lyn
##orate
##rb
##rrrrr
##we
bby
flow
hiccups
nk
parent
sept
worship
##ants
##ump
alan
aug
bnp
convinced
gna
grilled
hai
humidity
immediately
knowledge
lb
mt
politics
soap
unexpected
##fi
##llo
##tling
addict
core
drives
generally
gum
handy
map
newest
prep
ribs
terms
tornado
twittered
wales
wil
##ict
##iness
##lation
##nit
##zzy
cheesy
dell
oc
overcast
silent
summertime
waffle
wwdc
yumm
##form
##ias
##tn
ali
amusing
beth
conf
cuts
deliver
discussion
habit
keith
melissa
miracle
ness
novel
obvious
particular
robot
sho
sticks
thread
worlds
##ath
##bian
##eon
##press
##tein
##zie
bagel
bees
circle
daisies
flick
grandmother
greet
gw
nat
nation
nin
showered
sweaty
whale
##ibe
##ised
##rain
##test
##try
##ways
##ying
booze
depression
disco
european
forest
freaked
gp
huhu
newcastle
pearl
pointless
pushed
recession
showers
stalk
tequila
trend
twitterfon
##wer
atlantic
carolina
ceremony
chili
direction
docs
francisco
knackered
leon
lewis
recommendations
shifts
teams
tease
##bra
##rp
##ugs
blogger
chin
craig
funn
gained
hire
html
layin
pixar
tomoro
twisted
youuuu
##burger
##lish
##nny
##pi
##sex
##ular
##uuu
belive
brave
cape
cubs
daisy
giveaway
inch
muffins
np
offered
salsa
speakers
thrown
transfer
##icing
##ora
##rily
apologies
asia
attitude
beside
bot
ck
coding
curly
kool
lemonade
material
matthew
necessary
recommended
salvation
smashed
soooooooo
tooooo
uncomfortable
zealand
##ao
##chi
##vis
anthony
boobs
buttons
doggie
hbo
julie
penguins
reminding
thesis
turtle
tweeties
waffles
wid
##iate
##rly
##tory
##tract
bonfire
et
fired
gcse
goo
hotter
improve
joint
logged
ooc
production
quarter
severe
thousand
village
##card
##hop
ability
ahahaha
bikini
fred
leeds
nyt
slide
technically
##body
##gging
##lia
##sssss
anime
birth
bottles
cracking
ditto
explode
fireworks
lamb
looove
netflix
oi
rc
setup
standard
##come
##ena
##fire
##kn
##lve
bitter
bruised
christ
dayy
fran
mystery
oprah
pad
paula
pj
printer
rick
shave
sings
slice
tampa
twenty
##fer
##loom
##rough
##tu
bash
bo
calories
discount
haa
ja
kfc
outlook
unique
wack
##au
ant
bold
counts
daughters
default
exhausting
hola
hunny
jeremy
maine
models
numb
porch
serve
shared
sm
sophie
spencer
##cation
##don
##rch
clicked
climbing
conversations
cum
fairy
gnite
jonathan
loaded
md
mickey
mistakes
particularly
postponed
sc
spongebob
tied
##aaaay
##dles
##ification
##tr
##zone
arizona
awaiting
brush
css
disappointment
entirely
fu
gi
indonesia
kk
procrastinating
sup
wolf
##ail
##ays
##ids
##ios
##ization
##sen
ack
hmph
jade
medical
potatoes
skate
spots
stuffy
whoops
##bon
##gar
##hn
##uss
##uting
announcement
belated
caramel
carradine
dose
heartbroken
login
lunchtime
mcflyforgermany
pin
rawr
required
rome
sweetest
vintage
williams
yaay
##gian
##mates
##pee
##place
bg
digging
lion
mann
mug
olive
wif
wishin
##atic
##care
##gent
##iful
##oming
##rap
##rris
##tches
##tered
##west
arts
betty
blocks
claire
crawl
disease
holland
ihop
injury
keen
kitties
mountains
niley
ordering
pineapple
realizing
scored
##astic
##ese
##ona
##outs
##rown
ahhhhhh
aj
dane
drake
folk
handed
heidi
loveee
mask
paste
slap
smaller
snuggle
spelled
tommy
xoxox
yeahhh
##boo
##ef
##lves
##ola
##ppy
##put
bebo
brooke
correctly
counter
cups
dl
enjoyable
gen
grrrrr
lg
risk
ruining
scratched
sticky
string
toothache
##fied
##front
##lc
##lee
##tting
##vent
charm
essays
funky
homesick
howard
informed
mainly
mikey
nbc
nerves
rocky
tone
torn
urself
ward
warming
wire
worthy
##lby
biscuits
destroyed
donate
dryer
gardens
lightening
rays
remembering
squirrel
todayy
veggie
##aning
##base
##com
##fit
##note
##ows
##ql
##shire
##usion
ana
audience
babysit
choices
coulda
happily
mister
perez
unlike
weeds
##akes
##anie
##bird
##bling
##otic
##uard
actress
anxiety
auntie
discuss
ego
erin
harsh
healing
killin
maker
molly
mosquito
owned
pal
ping
pirate
settled
sleepin
sue
thirsty
twitting
unfortunate
urs
vacay
yelling
##aaaaa
##aking
##call
##dia
##tick
contemplating
gnight
lifetime
mart
minor
pitch
prove
rooms
rss
triple
unpacking
##fff
##iff
##nas
##sle
##tha
##tro
##xxx
addicting
basic
blocking
desert
eats
hype
listed
moz
mraz
##bel
##ines
##oid
##oked
##rley
##zle
chillen
cycling
dedicated
farewell
former
kc
queue
shares
stil
stretch
summers
teddy
victory
##bbing
##ico
##ited
##ith
##nah
##nces
##nnnn
bom
charging
dragon
education
extended
jog
lighting
ole
proposal
religion
sack
stealing
##hem
##iva
##lue
##player
##rning
##trip
##uce
brazilian
champagne
cuppa
girlfriends
goodies
guests
hike
lottery
missy
motion
napping
pittsburgh
promote
reset
russian
sprained
stewart
sunrise
thick
touring
##elle
##fl
##ino
##ody
##zes
clothing
curl
drunken
du
gahh
gallery
hometown
larry
motorcycle
nursing
overslept
television
tokyo
wreck
##ative
##ement
##ewing
##hahaha
##ota
batman
broadband
expert
factor
gawd
lovers
peas
po
restore
sunscreen
trial
vaca
woulda
yt
##bus
##ployment
##po
##tore
apples
below
blessing
chloe
hihi
johnson
modern
rat
revenge
shed
someones
winners
##bridge
##je
##where
cage
caused
charged
deleting
dressing
election
fame
industry
pepsi
pokemon
returning
stadium
studied
yelled
##awn
##born
##food
##hr
##rder
##times
##tley
##vies
aside
bachelorette
beard
campaign
dylan
frame
jaw
lecture
operation
ova
poisoning
shocking
skipping
spoil
##days
##gles
##lu
##ser
##ssie
##word
admin
cya
format
gps
hk
intro
item
joel
lime
mails
practically
raised
regents
spray
upgraded
upsetting
veronica
virginia
yankees
##iter
##rrific
##rted
##sty
electricity
faves
freeze
indiana
leather
monica
muah
multiply
patio
powers
stuffs
treating
##ada
##ank
##bt
##hill
##tan
##xed
adobe
alll
dem
directly
fwd
gate
hail
happend
julia
requests
spammers
vacations
wayne
##ature
##craft
##ont
##rating
brisbane
bush
cases
featured
isplayer
lastnight
mcmahon
oasis
shaq
sink
tail
ti
tops
touching
weed
##bc
##cket
##istic
##late
##lity
##oped
##tard
##tho
##urt
abs
andrea
android
appropriate
chasing
chilled
considered
draft
drum
external
government
guns
heal
holds
iphones
jose
lucas
mwah
oatmeal
tomorrows
trainer
##era
##ika
##nor
##pies
##rat
##yl
bcuz
betta
condolences
confirmation
dough
elbow
frog
hottie
les
mocha
nathan
oldest
peach
poppin
pudding
sandwiches
swap
wondered
##bull
##hen
##hey
##ille
##ject
##lings
##oc
##sey
##sie
##while
annual
biking
causing
constant
cuddling
ehh
false
netbook
regardless
shite
shown
vanessa
##abled
##ates
##cuit
##eek
##ggh
##ilt
##rot
##sions
##tc
activity
boarding
brighton
brit
cartoon
culture
davis
diva
morgan
mucho
oral
piercing
posters
unlimited
ure
wherever
##bell
##esh
##llll
##mie
##now
##park
##party
author
carnival
cinnamon
costume
dairy
dirt
horrid
omgosh
pilot
registered
rm
snacks
sucking
suspect
technical
vision
wrapped
##dog
##gers
##hes
##ination
##ones
##rf
##rive
##rks
##su
##theless
buffalo
caring
casa
celtics
claim
crunch
dats
dms
grades
granny
greece
holes
hoodie
internets
ourselves
photographer
pow
puke
roots
srry
writers
##break
##hhhhhh
##mous
##pool
##rta
##tta
bahaha
blisters
blogtv
boohoo
bothering
describe
footage
forms
fortune
grease
hiking
ke
lasts
li
scares
strip
suits
swedish
twitterific
union
##cycle
##gic
##lson
##tail
##tream
annie
bangs
barcelona
circus
comics
doug
drug
jenn
meg
noodle
nooooooo
portfolio
programming
quest
relate
relay
relieve
secrets
sewing
shades
shannon
sheep
shrimp
sleepless
thang
wassup
##bag
##ckle
##cture
##tching
##tton
batch
burrito
companies
guna
lols
mourning
obsession
pong
practicing
ringing
roses
rs
scenes
sends
sheesh
snoring
steven
unfollowed
volunteer
zach
zombies
##ager
##bug
##eeeeeee
##fly
##gue
##ito
##osed
##pes
##play
##the
##uals
##wind
##wise
abandoned
bruise
embarrassing
hve
neil
pole
pour
resume
rights
selfish
spiders
stavros
tesco
wayyy
##bba
##ently
##icate
##ml
##nder
##traction
##uld
angeles
bruce
errors
kenny
lag
laughter
looong
mow
natalie
ph
referring
understanding
workers
##iing
##lap
##rce
##ush
##verse
##xy
amused
ballet
century
crisis
cu
dip
dubai
ducks
financial
hahha
hottest
jury
mrw
opens
orientation
outs
pattern
pound
powerful
router
sees
sentence
shell
shuffle
tasted
trapped
twitt
wakes
##hold
##ucks
##ued
##ution
##wick
birmingham
convention
debating
fourth
giggle
lane
learnt
leo
mars
murder
seo
stepped
suicide
sweating
wooooo
##balls
##eve
##have
##lam
##rome
##uv
##vp
agent
applications
arg
butterfly
canon
curve
designing
dmb
favs
fudge
jan
je
kiddo
leader
nanny
needa
outdoor
pb
promotion
rant
recognize
returns
rode
soy
storage
switching
tay
trey
william
yearbook
##dget
##iel
##lers
##lor
advertising
coco
determined
diamond
disappear
drain
fic
followin
hack
jailbreak
nana
pairs
poetry
popping
trace
tuna
uhhh
##eva
##kill
##matic
##reen
##rol
aku
alert
avoiding
belt
cheating
compare
crab
disk
ist
luggage
melt
neglected
runny
satisfied
specific
spreading
symptoms
tn
tower
tylenol
visa
werent
worker
yell
##ards
##beat
##dder
##ever
##ially
##mble
##nda
##tty
##using
among
bbm
beg
bikes
boiling
cal
choir
construction
correction
dodgers
dunkin
gathering
lah
magical
organic
pump
reads
shucks
weds
wing
##anne
##case
##kay
##los
##onia
##ooood
##rine
##ths
autograph
cartoons
comming
denmark
dew
fuel
goals
highlight
homeless
idiots
nest
peek
plugin
prime
responding
salmon
shoppin
shorter
springs
sticking
stronger
teehee
##god
##oring
arghh
broadcast
confident
fee
flawless
heheh
inc
knitting
lighter
mmmmmm
pastor
pigs
poison
queens
soaking
suns
##hall
##ink
##ored
##quid
##show
##ssed
brownie
courtney
danced
highlights
highschool
horribly
innocent
jammin
jj
neva
noises
pjs
refresh
responded
ron
russell
sorts
tomatoes
twitterworld
vitamin
zzz
##ander
##berries
##heads
##ison
##olic
##pect
##pop
##pping
##quet
##rth
##ulate
##via
##ziness
##zzzz
allll
alpha
balloon
begging
figures
filter
freaky
fuzzy
generation
glory
hater
heya
inaperfectworld
likey
listing
malaysia
promising
reward
skating
spotted
teasing
treatment
youngest
##ams
##fty
##mmer
##ppp
andyhurleyday
begun
cone
ea
indy
lool
nascar
rolled
roller
shade
slip
spoken
stickam
ted
tick
travelling
viewing
wembley
##hit
##other
##pl
##rease
##zen
badass
bananas
complex
cont
drained
flops
hayley
hoe
imac
jun
kayla
kingdom
lmaoo
lyk
methinks
pacific
rents
sissy
spamming
subscribe
surprises
tasting
walks
##ability
##bert
##esta
##eze
##hooo
##kkkk
##lb
##mouth
##rah
##rial
##twitter
##view
allison
announce
assuming
batteries
becomes
checkin
colds
comcast
dollhouse
frankie
fur
greatly
hats
henry
messenger
moore
offers
pandora
relieved
sats
sweety
tina
ubertwitter
##ame
##chool
##quire
##rcy
abby
bare
chai
creek
defo
der
expo
fort
hum
karen
kiddos
kl
kong
monthly
nate
retail
rooting
rum
sb
sidekick
slower
solved
spaghetti
steam
upper
volume
##active
##fta
##ington
##itional
##mb
##nity
##nne
##sky
##stage
##vil
##wing
ab
acct
approve
blogspot
booty
casino
cooper
developer
douche
emotions
hundred
illegal
ivy
justice
leah
loooong
loooove
lou
mcr
onion
playoffs
races
sleeep
supply
tivo
treadmill
xoxoxo
##arf
##nc
##ronic
##sil
##tee
##uno
##van
alternative
approved
bam
casey
egypt
imax
infected
loosing
microwave
phrase
pinky
por
printing
sipping
strep
thts
tori
treats
types
understood
wal
wallpaper
wp
##ague
##ishment
##lair
##rew
##win
##zzle
antibiotics
arrives
birthdays
cameras
celebrities
chica
discover
earrings
eps
hunter
hut
irritated
leak
membership
noah
nu
penny
refreshed
rejected
sides
spoon
suite
syrup
tp
vegetarian
##acking
##flies
##ication
##iers
##lah
##live
##ndi
##pace
##water
accounting
attractive
chapters
cnn
deer
delish
designed
entered
foster
freezer
heehee
hidden
hunger
ick
mite
monsters
northern
path
pounding
saddened
scan
seek
translation
yaa
##ban
##cho
##dal
##emy
##ete
##gina
##hia
##moon
##ogue
##tant
ada
agenda
aloud
anger
antonio
ashton
bathing
bball
becca
burst
carrie
collect
cuddles
downside
dragging
font
garbage
gotcha
grant
highway
inner
jewelry
kudos
lc
mowing
nowadays
replay
sharp
sin
sympathy
travis
##bes
##boys
##ducing
##gage
##hee
##itating
##kan
##mn
##yon
ar
clips
cody
confidence
foreign
fringe
homies
humans
israel
juss
pale
pod
pooped
recovered
tempting
timeline
travels
tricks
twitts
uniform
wilson
wiped
##amp
##hine
##iv
##mers
##ru
##vel
##yd
##yt
alike
bond
bradie
chipotle
commented
condition
henrie
journal
jungle
millions
needles
olds
overtime
physically
roomie
steel
summit
terrified
todd
zoe
##cape
##graph
##mt
##oping
##rid
##ried
##rum
##sday
##umber
##vas
attached
bailey
belgium
belle
bid
cellphone
cobra
danielle
dec
fatty
grin
hubs
logging
mai
provide
psych
ruins
sarcasm
stiff
twitterfox
western
yous
##cht
##fia
##heat
##hm
##tape
##ules
acts
americans
arriving
blister
bounce
brains
carrying
cheek
cole
exploring
filipino
groceries
heater
laptops
melted
melting
ment
ontd
pays
romance
skipped
swag
temperature
tshirt
yayyyy
##donald
##eal
##ims
##ord
##tend
##tire
benefit
blasting
blush
champions
dancer
girlies
goose
infamous
meow
millionaire
nm
nov
nvm
responsible
restless
shines
shore
sl
specially
sumthin
sweater
throughout
tragedy
trail
twitpics
vomit
##ders
##gged
##liest
##not
##ops
##stitute
##table
##ums
alyssa
argument
clearing
confirm
director
ford
hangout
haveyouever
heartbreaking
homes
kickin
knife
leading
macs
memphis
mis
oregon
pedi
pill
remain
shipped
snake
spy
thanking
tires
##dah
##ique
##iser
##ooooooo
##ube
cheat
communication
ffs
fights
happiest
jean
med
naturally
paige
pero
regarding
safety
smash
successfully
treated
twist
typo
unbelievable
##lets
##lling
##reak
##yyyyyy
booking
bra
brittany
buses
endless
feeds
glasto
glee
gov
guessed
hers
hollyoaks
honored
kg
led
madison
nada
pace
paypal
pg
pint
suitcase
tb
twat
wheels
##eep
##eez
##ev
##sit
##sue
ahahah
buffet
chan
chaos
clubs
coconut
cord
downloads
elizabeth
engagement
era
jennifer
krispy
latin
loll
maggie
mayb
medium
rage
sandals
shakes
sheet
thailand
tonights
utterly
wan
##cope
##dos
##ento
##icles
##ndent
##oi
##oli
##oot
buffy
clinic
darlin
espn
expired
fiance
flooded
mas
masterchef
nan
om
peak
picks
pirates
printed
programs
rally
ramen
rash
survivor
tj
transport
unknown
zomg
##act
##club
##eem
##gies
##ira
##izzle
##ners
##ouse
##rto
##sist
##ugal
##vention
byee
colours
craft
dw
eastern
havn
hii
hittin
interface
madrid
matches
offended
phase
presence
priceless
rep
resort
suggested
tattoos
towel
trackle
ts
ui
unemployed
wardrobe
whom
##aky
##esy
##feed
##fm
##iac
##istol
##lady
##ntal
##ound
##pel
##rek
##rel
annoy
applying
blu
brick
browsing
brutal
canal
christina
countries
delongeday
dreamt
entertained
estate
maps
milkshake
moi
newspaper
oww
rested
retweeting
ricky
serving
suprise
##ights
##ining
##jects
##racy
##sta
##sues
##wanted
bubbles
charles
commute
connecting
crc
disturbing
finland
fluffy
ghostbusters
january
laters
lautner
lotsa
od
pleaseee
plot
rangers
rubbing
sac
shadow
speaker
tink
typed
whatcha
##aan
##arts
##chy
##cies
##cript
##iana
##irk
##lone
##mel
##mon
##nuts
##omics
##overs
##pense
##rice
appearance
callin
classmates
cope
destroy
espresso
flag
flippin
gordon
hurricane
mj
origin
pond
reallly
scottish
seein
slumdog
stroke
tab
tara
ther
tries
yung
##dance
##fying
##pse
##ras
##ste
##udy
##ural
##weep
##xi
##zzi
aight
banner
blueberry
cocktail
everton
frickin
hamilton
hmmmmm
irl
linked
misss
murray
neighbour
refuses
runner
sammy
solve
stink
womp
yaaaay
##alia
##bal
##bat
##erry
##ju
##kl
##lobe
##mas
##nic
##nice
##sense
##upon
##verted
##vision
alaska
boost
cider
codes
dumped
duper
flavor
gals
gue
heey
invites
kindle
machines
mariah
mitchell
passengers
pcd
remaining
rockstar
sample
sounding
surrounded
tc
tutorial
zack
##az
##bin
##bles
##hack
##hirl
##jection
##llen
##lusion
##ointed
##rising
##take
##volve
anderson
autumn
bastards
bea
bucket
ceiling
crackers
delhi
department
experiment
fella
fer
focused
goddamn
gran
hardware
hush
leopard
mud
nina
noisy
ooooo
outing
panera
pretending
purchased
tcot
tested
tiffany
tomo
##bition
##df
##did
##eos
##hah
##mez
##type
##who
exited
fob
hammer
itching
louise
pun
simpsons
sons
various
yummm
##ando
##code
##ean
##ivia
##lter
##lving
##nting
##rday
##ridge
##road
##rra
##uum
##ven
##vest
accidently
ahem
belfast
cleared
cock
columbus
cookout
cozy
db
debate
forth
froze
ghetto
giants
hamster
illness
imo
knoww
lala
lv
mileymonday
ofcourse
personality
protect
qu
shaunjumpnow
shld
upp
whiskey
wnt
##dee
##grading
##haa
##irty
##nge
##pu
##quel
##ques
##rassed
##rium
##rrison
##wich
ashes
deciding
eyebrows
fc
incident
kansas
payday
pierced
smelly
stayin
strangers
tidying
tnx
universal
veggies
wears
yg
yuk
##eck
##gration
##vn
activities
baltimore
bi
brighter
broadway
camper
devastated
eddie
grammar
intended
invented
ken
kewl
kidney
ky
label
lax
loan
method
oxford
rental
spectacular
tiff
towers
##aming
##cence
##dom
##iao
##iara
##ingly
##loves
##nail
##pad
##plane
##rop
##sted
##thin
##ungs
##whelmed
abuse
assistant
ban
benjamin
boooooo
colin
debut
disagree
documentary
fiction
heres
icons
ict
invitation
itz
kissed
leads
lifes
margaritas
milo
monkeys
movin
mumbai
organized
published
recipes
seminar
served
slipped
spree
stands
supplies
swallow
systems
yur
##city
##elt
##erce
##lding
##lip
##lucky
##market
##rived
##roach
##tern
##tine
##tis
##url
##urray
academy
ants
bali
cept
dyed
exit
fil
foundation
goodbyes
julian
lists
manual
mk
mu
nerve
psychology
skins
tbs
ut
withdrawal
##aat
##ala
##bbie
##cci
##dex
##ession
##hens
##itches
##jamas
##lare
##ngs
##oni
##osophy
##owa
##pted
##rns
##tas
##tones
##tracting
##wwy
##ython
ale
arrested
backed
bryan
converse
crowded
dani
discovery
editor
exclusive
guilt
hurrah
impression
lappy
meeeee
mentally
mets
nicest
panel
rotten
superman
trivia
##ani
##anna
##aret
##bz
##fting
##hant
##ibilities
##imated
##nee
##nnel
##oly
##oman
##pg
##ssa
##tall
##ttttt
##yah
adams
bck
candles
depending
directions
earned
fitting
grandfather
invisible
linda
loses
mph
nauseous
navy
netball
oscar
pause
shampoo
sucker
translate
underwear
weddings
##ahaha
##dess
##dor
##even
##gghh
##hers
##ila
##ipe
##mier
##ony
##pedia
##rad
##rders
##serve
##shy
##urie
amounts
aunts
automatically
billion
capital
cities
classy
cm
copies
diner
disconnected
dodgy
dump
edited
envious
explains
ftl
ikr
inches
lacking
musso
nearby
nga
peeling
peru
pfft
policy
sally
sooon
watermelon
##bone
##dra
##eved
##gal
##hate
##kle
##letter
##oool
##roughly
##ulu
admire
amazin
amp
asthma
backwards
boards
chad
chocolates
cocktails
deals
dexter
dragged
ewww
farmers
iranian
jt
tables
thousands
tuesdays
veg
violence
visual
xmas
##ato
##bile
##ceiving
##chos
##ibute
##laga
##latives
##mmmm
##nday
##oks
##ole
##run
##rw
##urnal
auction
br
breakdown
bu
chop
destination
disappoint
dorm
fence
flood
folder
gahhh
homee
lindsay
lotion
orleans
ou
ranch
roads
separate
sooooooooo
waaaay
walkin
wo
##!
##'
##.
##?
